
Gfx g_cut_rock2_weight_envmap_ci8_aligner[] = {gsSPEndDisplayList()};
u8 g_cut_rock2_weight_envmap_ci8[] = {
	0x00, 0x01, 0x02, 0x03, 0x04, 0x05, 0x06, 0x07, 
	0x08, 0x09, 0x0a, 0x0a, 0x0b, 0x0b, 0x0b, 0x0b, 
	0x0b, 0x0b, 0x0b, 0x0b, 0x0b, 0x0b, 0x0b, 0x0b, 
	0x0b, 0x0c, 0x0d, 0x0e, 0x0e, 0x0d, 0x0f, 0x0f, 
	0x10, 0x11, 0x12, 0x13, 0x14, 0x15, 0x16, 0x16, 
	0x16, 0x17, 0x18, 0x19, 0x1a, 0x1a, 0x1a, 0x1a, 
	0x1a, 0x19, 0x1b, 0x1c, 0x13, 0x12, 0x1d, 0x0e, 
	0x1e, 0x1e, 0x1e, 0x1f, 0x20, 0x21, 0x22, 0x23, 
	0x24, 0x24, 0x24, 0x01, 0x25, 0x26, 0x27, 0x28, 
	0x29, 0x2a, 0x2a, 0x0b, 0x0b, 0x0b, 0x0b, 0x0b, 
	0x0b, 0x0b, 0x0b, 0x0b, 0x0b, 0x0b, 0x0b, 0x0b, 
	0x2b, 0x0d, 0x0e, 0x0e, 0x0e, 0x0e, 0x0e, 0x2c, 
	0x1d, 0x2d, 0x2e, 0x2f, 0x30, 0x31, 0x32, 0x32, 
	0x32, 0x33, 0x34, 0x02, 0x01, 0x01, 0x02, 0x01, 
	0x01, 0x01, 0x25, 0x35, 0x36, 0x37, 0x38, 0x0e, 
	0x1e, 0x1e, 0x1e, 0x1e, 0x1f, 0x1e, 0x21, 0x39, 
	0x24, 0x24, 0x24, 0x24, 0x02, 0x32, 0x3a, 0x14, 
	0x3b, 0x0b, 0x0b, 0x0b, 0x0b, 0x0b, 0x0b, 0x0b, 
	0x0b, 0x0b, 0x0b, 0x0b, 0x0b, 0x0b, 0x0b, 0x0b, 
	0x3c, 0x0e, 0x0e, 0x0e, 0x0e, 0x0e, 0x0e, 0x21, 
	0x3d, 0x3e, 0x3f, 0x40, 0x41, 0x42, 0x42, 0x42, 
	0x42, 0x43, 0x03, 0x24, 0x24, 0x24, 0x24, 0x24, 
	0x24, 0x24, 0x24, 0x44, 0x45, 0x3e, 0x46, 0x0e, 
	0x1e, 0x1e, 0x1e, 0x1e, 0x47, 0x47, 0x21, 0x14, 
	0x24, 0x24, 0x24, 0x24, 0x48, 0x32, 0x3a, 0x14, 
	0x49, 0x0b, 0x0b, 0x0b, 0x0b, 0x0b, 0x0b, 0x0b, 
	0x0b, 0x0b, 0x0b, 0x0b, 0x0b, 0x0b, 0x0b, 0x4a, 
	0x0e, 0x0e, 0x0e, 0x0e, 0x0e, 0x0e, 0x0e, 0x4b, 
	0x4c, 0x4d, 0x4e, 0x4f, 0x34, 0x50, 0x50, 0x50, 
	0x51, 0x52, 0x53, 0x24, 0x24, 0x24, 0x24, 0x24, 
	0x24, 0x24, 0x01, 0x54, 0x55, 0x17, 0x13, 0x21, 
	0x1e, 0x1e, 0x1e, 0x1e, 0x47, 0x47, 0x21, 0x56, 
	0x24, 0x24, 0x24, 0x24, 0x48, 0x32, 0x3a, 0x14, 
	0x57, 0x0b, 0x0b, 0x0b, 0x0b, 0x0b, 0x0b, 0x0b, 
	0x0b, 0x0b, 0x0b, 0x0b, 0x0b, 0x0b, 0x0b, 0x58, 
	0x0e, 0x0e, 0x0e, 0x0e, 0x0e, 0x0e, 0x0e, 0x12, 
	0x44, 0x59, 0x02, 0x01, 0x24, 0x01, 0x01, 0x24, 
	0x24, 0x24, 0x01, 0x01, 0x24, 0x24, 0x24, 0x24, 
	0x24, 0x24, 0x01, 0x5a, 0x41, 0x05, 0x14, 0x21, 
	0x1e, 0x1e, 0x1e, 0x47, 0x47, 0x47, 0x0e, 0x5b, 
	0x24, 0x24, 0x24, 0x24, 0x25, 0x4d, 0x5c, 0x5d, 
	0x57, 0x0b, 0x0b, 0x0b, 0x0b, 0x0b, 0x0b, 0x0b, 
	0x0b, 0x0b, 0x0b, 0x0b, 0x0b, 0x0b, 0x5e, 0x0e, 
	0x0e, 0x0e, 0x0e, 0x0e, 0x0e, 0x0e, 0x5f, 0x60, 
	0x02, 0x01, 0x24, 0x24, 0x24, 0x24, 0x24, 0x24, 
	0x24, 0x24, 0x24, 0x24, 0x01, 0x01, 0x24, 0x24, 
	0x24, 0x24, 0x01, 0x51, 0x33, 0x31, 0x15, 0x1d, 
	0x0e, 0x1e, 0x1e, 0x47, 0x47, 0x47, 0x0e, 0x3d, 
	0x24, 0x01, 0x03, 0x50, 0x4e, 0x17, 0x2d, 0x61, 
	0x62, 0x0b, 0x0b, 0x0b, 0x0b, 0x0b, 0x0b, 0x0b, 
	0x0b, 0x0b, 0x0b, 0x0b, 0x0b, 0x63, 0x0d, 0x0e, 
	0x0e, 0x0e, 0x0e, 0x0e, 0x0e, 0x64, 0x65, 0x66, 
	0x24, 0x24, 0x24, 0x24, 0x24, 0x24, 0x24, 0x24, 
	0x24, 0x24, 0x24, 0x24, 0x24, 0x24, 0x24, 0x24, 
	0x24, 0x24, 0x01, 0x5a, 0x33, 0x31, 0x67, 0x2d, 
	0x1d, 0x4b, 0x1f, 0x1e, 0x47, 0x47, 0x0e, 0x12, 
	0x24, 0x01, 0x51, 0x68, 0x26, 0x3e, 0x1d, 0x69, 
	0x6a, 0x6b, 0x0b, 0x0b, 0x0b, 0x0b, 0x0b, 0x0b, 
	0x0b, 0x0b, 0x0b, 0x0b, 0x0b, 0x6c, 0x0e, 0x0e, 
	0x0e, 0x0e, 0x0e, 0x0e, 0x6d, 0x6e, 0x24, 0x24, 
	0x24, 0x24, 0x24, 0x24, 0x24, 0x24, 0x24, 0x24, 
	0x24, 0x24, 0x24, 0x24, 0x24, 0x24, 0x24, 0x24, 
	0x24, 0x24, 0x01, 0x34, 0x33, 0x32, 0x6f, 0x5c, 
	0x2d, 0x1d, 0x20, 0x1f, 0x47, 0x1e, 0x0e, 0x38, 
	0x24, 0x02, 0x5a, 0x33, 0x70, 0x37, 0x21, 0x2c, 
	0x6a, 0x6b, 0x0b, 0x0b, 0x0b, 0x0b, 0x0b, 0x0b, 
	0x0b, 0x0b, 0x0b, 0x0b, 0x71, 0x0d, 0x0e, 0x0e, 
	0x0e, 0x0e, 0x0e, 0x0e, 0x72, 0x24, 0x24, 0x24, 
	0x24, 0x24, 0x24, 0x24, 0x24, 0x24, 0x24, 0x24, 
	0x24, 0x24, 0x24, 0x24, 0x24, 0x24, 0x24, 0x24, 
	0x24, 0x24, 0x01, 0x50, 0x73, 0x32, 0x74, 0x3e, 
	0x13, 0x38, 0x20, 0x75, 0x47, 0x47, 0x0e, 0x1d, 
	0x24, 0x02, 0x5a, 0x33, 0x05, 0x13, 0x0e, 0x2c, 
	0x6a, 0x0b, 0x0b, 0x0b, 0x0b, 0x0b, 0x0b, 0x0b, 
	0x0b, 0x0b, 0x0b, 0x0b, 0x76, 0x0e, 0x0e, 0x0e, 
	0x0e, 0x0e, 0x0e, 0x77, 0x01, 0x24, 0x24, 0x24, 
	0x24, 0x24, 0x24, 0x24, 0x24, 0x24, 0x24, 0x24, 
	0x24, 0x24, 0x24, 0x24, 0x24, 0x24, 0x24, 0x24, 
	0x24, 0x24, 0x24, 0x52, 0x78, 0x33, 0x79, 0x3a, 
	0x06, 0x38, 0x20, 0x75, 0x47, 0x1e, 0x0e, 0x1d, 
	0x24, 0x01, 0x5a, 0x33, 0x05, 0x37, 0x21, 0x2c, 
	0x6a, 0x0b, 0x0b, 0x0b, 0x0b, 0x0b, 0x0b, 0x0b, 
	0x0b, 0x0b, 0x0b, 0x0b, 0x58, 0x0e, 0x0e, 0x0e, 
	0x0e, 0x0e, 0x0e, 0x7a, 0x24, 0x24, 0x24, 0x24, 
	0x24, 0x24, 0x24, 0x24, 0x24, 0x24, 0x24, 0x24, 
	0x24, 0x24, 0x24, 0x24, 0x24, 0x24, 0x24, 0x24, 
	0x24, 0x24, 0x24, 0x24, 0x02, 0x59, 0x35, 0x3a, 
	0x7b, 0x46, 0x4b, 0x1e, 0x1e, 0x1e, 0x0e, 0x1d, 
	0x24, 0x02, 0x5a, 0x33, 0x05, 0x37, 0x21, 0x7c, 
	0x7d, 0x0b, 0x0b, 0x0b, 0x0b, 0x0b, 0x0b, 0x0b, 
	0x0b, 0x0b, 0x0b, 0x2b, 0x0e, 0x0e, 0x0e, 0x0e, 
	0x0e, 0x20, 0x7e, 0x01, 0x24, 0x24, 0x24, 0x24, 
	0x24, 0x24, 0x24, 0x24, 0x24, 0x24, 0x24, 0x24, 
	0x24, 0x24, 0x24, 0x24, 0x24, 0x24, 0x24, 0x24, 
	0x24, 0x24, 0x24, 0x24, 0x01, 0x48, 0x7f, 0x3a, 
	0x7b, 0x38, 0x21, 0x1e, 0x1e, 0x1e, 0x0e, 0x1d, 
	0x24, 0x02, 0x5a, 0x33, 0x70, 0x13, 0x0e, 0x7c, 
	0x7d, 0x0b, 0x0b, 0x0b, 0x0b, 0x0b, 0x0b, 0x0b, 
	0x0b, 0x0b, 0x0b, 0x2b, 0x80, 0x0e, 0x0e, 0x0e, 
	0x0e, 0x4b, 0x81, 0x24, 0x24, 0x24, 0x24, 0x24, 
	0x24, 0x24, 0x24, 0x24, 0x24, 0x24, 0x24, 0x24, 
	0x24, 0x24, 0x24, 0x24, 0x24, 0x24, 0x24, 0x24, 
	0x24, 0x24, 0x24, 0x24, 0x24, 0x02, 0x7f, 0x3a, 
	0x7b, 0x38, 0x0e, 0x47, 0x1e, 0x1e, 0x1e, 0x82, 
	0x24, 0x02, 0x54, 0x33, 0x30, 0x83, 0x0e, 0x7c, 
	0x84, 0x0b, 0x0b, 0x0b, 0x0b, 0x0b, 0x0b, 0x0b, 
	0x0b, 0x0b, 0x0b, 0x6a, 0x58, 0x0e, 0x0e, 0x0e, 
	0x0e, 0x85, 0x02, 0x24, 0x24, 0x24, 0x24, 0x24, 
	0x24, 0x24, 0x24, 0x24, 0x24, 0x24, 0x24, 0x24, 
	0x24, 0x24, 0x24, 0x24, 0x24, 0x24, 0x24, 0x24, 
	0x24, 0x24, 0x24, 0x24, 0x24, 0x48, 0x7a, 0x3a, 
	0x7b, 0x46, 0x0e, 0x47, 0x47, 0x47, 0x1e, 0x0e, 
	0x24, 0x02, 0x54, 0x41, 0x39, 0x21, 0x0e, 0x2c, 
	0x71, 0x0b, 0x0b, 0x0b, 0x0b, 0x0b, 0x0b, 0x0b, 
	0x0b, 0x0b, 0x86, 0x87, 0x75, 0x0e, 0x0e, 0x0e, 
	0x20, 0x70, 0x01, 0x24, 0x24, 0x24, 0x24, 0x24, 
	0x24, 0x24, 0x24, 0x24, 0x24, 0x24, 0x24, 0x24, 
	0x24, 0x24, 0x24, 0x24, 0x24, 0x24, 0x24, 0x24, 
	0x24, 0x24, 0x24, 0x24, 0x24, 0x02, 0x7a, 0x88, 
	0x7b, 0x46, 0x21, 0x47, 0x47, 0x47, 0x1e, 0x1e, 
	0x24, 0x02, 0x89, 0x32, 0x8a, 0x0e, 0x0e, 0x8b, 
	0x71, 0x0b, 0x0b, 0x0b, 0x0b, 0x0b, 0x0b, 0x0b, 
	0x0b, 0x0b, 0x63, 0x58, 0x75, 0x20, 0x0e, 0x0e, 
	0x82, 0x44, 0x01, 0x24, 0x24, 0x24, 0x24, 0x24, 
	0x24, 0x24, 0x24, 0x24, 0x24, 0x24, 0x24, 0x24, 
	0x24, 0x24, 0x24, 0x24, 0x24, 0x24, 0x24, 0x24, 
	0x24, 0x24, 0x24, 0x24, 0x24, 0x02, 0x8c, 0x3f, 
	0x27, 0x2d, 0x21, 0x47, 0x47, 0x1e, 0x47, 0x1e, 
	0x24, 0x02, 0x44, 0x70, 0x11, 0x0e, 0x0e, 0x8d, 
	0x2b, 0x0b, 0x0b, 0x0b, 0x0b, 0x0b, 0x0b, 0x0b, 
	0x0b, 0x0b, 0x71, 0x0d, 0x1e, 0x20, 0x0e, 0x20, 
	0x8e, 0x54, 0x01, 0x24, 0x24, 0x24, 0x24, 0x24, 
	0x24, 0x24, 0x24, 0x24, 0x8f, 0x24, 0x24, 0x24, 
	0x24, 0x24, 0x24, 0x24, 0x24, 0x24, 0x24, 0x24, 
	0x24, 0x24, 0x24, 0x24, 0x24, 0x02, 0x78, 0x74, 
	0x67, 0x13, 0x90, 0x47, 0x47, 0x47, 0x47, 0x47, 
	0x24, 0x48, 0x91, 0x3e, 0x21, 0x0e, 0x0d, 0x92, 
	0x0b, 0x0b, 0x0b, 0x0b, 0x0b, 0x0b, 0x0b, 0x0b, 
	0x0b, 0x0b, 0x93, 0x0e, 0x75, 0x1f, 0x0e, 0x38, 
	0x05, 0x89, 0x01, 0x24, 0x24, 0x24, 0x24, 0x24, 
	0x24, 0x24, 0x24, 0x24, 0x8f, 0x24, 0x24, 0x24, 
	0x24, 0x24, 0x24, 0x24, 0x24, 0x24, 0x24, 0x24, 
	0x24, 0x24, 0x24, 0x24, 0x24, 0x01, 0x34, 0x94, 
	0x30, 0x14, 0x90, 0x47, 0x47, 0x47, 0x47, 0x1e, 
	0x24, 0x48, 0x55, 0x13, 0x21, 0x0e, 0x3c, 0x0b, 
	0x0b, 0x0b, 0x0b, 0x0b, 0x0b, 0x0b, 0x0b, 0x0b, 
	0x0b, 0x0b, 0x95, 0x96, 0x75, 0x1f, 0x0e, 0x46, 
	0x70, 0x54, 0x01, 0x24, 0x24, 0x24, 0x24, 0x24, 
	0x24, 0x24, 0x24, 0x24, 0x97, 0x24, 0x24, 0x24, 
	0x24, 0x24, 0x24, 0x24, 0x24, 0x24, 0x24, 0x24, 
	0x24, 0x24, 0x24, 0x24, 0x24, 0x01, 0x50, 0x33, 
	0x70, 0x8e, 0x83, 0x47, 0x47, 0x47, 0x1e, 0x1e, 
	0x24, 0x48, 0x55, 0x22, 0x0e, 0x0e, 0x98, 0x0b, 
	0x0b, 0x0b, 0x0b, 0x0b, 0x0b, 0x0b, 0x0b, 0x0b, 
	0x0b, 0x0b, 0x99, 0x0d, 0x0e, 0x20, 0x0e, 0x1d, 
	0x9a, 0x5a, 0x24, 0x24, 0x24, 0x24, 0x24, 0x24, 
	0x24, 0x24, 0x24, 0x24, 0x8f, 0x24, 0x24, 0x24, 
	0x24, 0x24, 0x24, 0x24, 0x24, 0x24, 0x24, 0x24, 
	0x24, 0x24, 0x24, 0x24, 0x24, 0x01, 0x50, 0x33, 
	0x31, 0x16, 0x9b, 0x21, 0x0e, 0x0e, 0x1e, 0x47, 
	0x24, 0x48, 0x9c, 0x90, 0x0e, 0x9d, 0x63, 0x0b, 
	0x0b, 0x0b, 0x0b, 0x0b, 0x0b, 0x0b, 0x0b, 0x0b, 
	0x0b, 0x0b, 0x9e, 0x0e, 0x0e, 0x0e, 0x0e, 0x20, 
	0x15, 0x52, 0x24, 0x24, 0x24, 0x24, 0x24, 0x24, 
	0x24, 0x24, 0x24, 0x24, 0x9f, 0x24, 0x24, 0x24, 
	0x24, 0x24, 0x24, 0x24, 0x24, 0x24, 0x24, 0x24, 
	0x24, 0x24, 0x24, 0x24, 0x24, 0x01, 0x52, 0x68, 
	0x32, 0x17, 0x37, 0x46, 0x1d, 0x21, 0x47, 0x47, 
	0x24, 0x48, 0x4c, 0x21, 0x0e, 0x9d, 0x0b, 0x0b, 
	0x0b, 0x0b, 0x0b, 0x0b, 0x0b, 0x0b, 0x0b, 0x0b, 
	0x0b, 0x0b, 0xa0, 0x0e, 0x0e, 0x0e, 0x0e, 0x0e, 
	0x11, 0x02, 0x24, 0x24, 0x24, 0x24, 0x24, 0x24, 
	0x24, 0x24, 0x24, 0x24, 0xa1, 0x24, 0x24, 0x24, 
	0x24, 0x24, 0x24, 0x24, 0x24, 0x24, 0x24, 0x24, 
	0x24, 0x24, 0x24, 0x24, 0x24, 0x24, 0x52, 0x42, 
	0x32, 0x05, 0x3a, 0x37, 0x12, 0x21, 0x75, 0x47, 
	0x02, 0x04, 0x85, 0x0e, 0x0e, 0xa2, 0x0b, 0x0b, 
	0x0b, 0x0b, 0x0b, 0x0b, 0x0b, 0x0b, 0x0b, 0x0b, 
	0x0b, 0x0b, 0x80, 0x0e, 0x0e, 0x0e, 0x0e, 0x0e, 
	0x69, 0x48, 0x24, 0x24, 0x24, 0x24, 0x24, 0x24, 
	0x24, 0x24, 0x24, 0x24, 0x01, 0x24, 0x24, 0x24, 
	0x24, 0x24, 0x24, 0x24, 0x24, 0x24, 0x24, 0x24, 
	0x24, 0x24, 0x24, 0x24, 0x24, 0x24, 0x03, 0xa3, 
	0x33, 0x70, 0x3a, 0x37, 0x46, 0x21, 0x75, 0x1e, 
	0xa4, 0xa5, 0xa6, 0x0e, 0x21, 0xa0, 0x0b, 0x0b, 
	0x0b, 0x0b, 0x0b, 0x0b, 0x0b, 0x0b, 0x0b, 0x0b, 
	0x0b, 0x0b, 0x0d, 0x0e, 0x0e, 0x0e, 0x0e, 0x0e, 
	0xa7, 0x34, 0x24, 0x24, 0x24, 0x24, 0x24, 0x24, 
	0x24, 0x24, 0x24, 0x24, 0x24, 0x24, 0x24, 0x24, 
	0x24, 0x24, 0x24, 0x24, 0x24, 0x24, 0x24, 0x24, 
	0x24, 0x24, 0x24, 0x24, 0x24, 0x24, 0x01, 0x03, 
	0x34, 0x26, 0x88, 0x06, 0x46, 0x21, 0x75, 0x1e, 
	0x42, 0x70, 0x90, 0x0e, 0x21, 0xa8, 0x6b, 0x0b, 
	0x0b, 0x0b, 0x0b, 0x0b, 0x0b, 0x0b, 0x0b, 0x0b, 
	0x0b, 0xa9, 0x0e, 0x0e, 0x0e, 0x0e, 0x0e, 0x0e, 
	0x20, 0xaa, 0x24, 0x24, 0x24, 0x24, 0x24, 0x24, 
	0x24, 0x24, 0x24, 0x24, 0x24, 0x24, 0x24, 0x24, 
	0x24, 0x24, 0x24, 0x24, 0x24, 0x24, 0x24, 0x24, 
	0x24, 0x24, 0x24, 0x24, 0x24, 0x24, 0x24, 0x24, 
	0x01, 0xab, 0x88, 0x7b, 0x12, 0x21, 0x1e, 0x1e, 
	0xac, 0x17, 0x21, 0x0e, 0x0e, 0xad, 0x6b, 0x0b, 
	0x0b, 0x0b, 0x0b, 0x0b, 0x0b, 0x0b, 0x0b, 0x0b, 
	0x0b, 0xae, 0x0e, 0x0e, 0x0e, 0x0e, 0x0e, 0x0e, 
	0x0e, 0xaf, 0x24, 0x24, 0x24, 0x24, 0x24, 0x24, 
	0x24, 0x24, 0x24, 0x24, 0x24, 0x24, 0x24, 0x24, 
	0x24, 0x24, 0x24, 0x24, 0x24, 0x24, 0x24, 0x24, 
	0x24, 0x24, 0x24, 0x24, 0x24, 0x24, 0x24, 0x24, 
	0x24, 0x34, 0x3f, 0x13, 0x12, 0x21, 0x1e, 0x1e, 
	0x41, 0x16, 0x21, 0x0e, 0x0e, 0x7d, 0x0b, 0x0b, 
	0x0b, 0x0b, 0x0b, 0x0b, 0x0b, 0x0b, 0x0b, 0x0b, 
	0x0b, 0xb0, 0x0e, 0x0e, 0x0e, 0x0e, 0x0e, 0x0e, 
	0x0e, 0x85, 0x24, 0x24, 0x24, 0x24, 0x24, 0x24, 
	0x24, 0x24, 0x24, 0x24, 0x24, 0x24, 0x24, 0x24, 
	0x24, 0x24, 0x24, 0x24, 0x24, 0x24, 0x24, 0x24, 
	0x24, 0x24, 0x24, 0x24, 0x24, 0x24, 0x24, 0x24, 
	0x24, 0x48, 0x05, 0x06, 0x12, 0x21, 0x1e, 0x1e, 
	0x41, 0x39, 0x0e, 0x0e, 0x0e, 0x7d, 0x0b, 0x0b, 
	0x0b, 0x0b, 0x0b, 0x0b, 0x0b, 0x0b, 0x0b, 0x0b, 
	0x0b, 0xb1, 0x0e, 0x0e, 0x0e, 0x0e, 0x0e, 0x0e, 
	0x0e, 0x11, 0x01, 0x24, 0x24, 0x24, 0x24, 0x24, 
	0x24, 0x24, 0x24, 0x24, 0x24, 0x24, 0x24, 0x24, 
	0x24, 0x24, 0x24, 0x24, 0x24, 0x24, 0x24, 0x24, 
	0x24, 0x24, 0x24, 0x24, 0x24, 0x24, 0x24, 0x24, 
	0x24, 0x24, 0x44, 0x8e, 0x12, 0x21, 0x1e, 0x1e, 
	0x41, 0x8a, 0x0e, 0x0e, 0x0e, 0x7d, 0x0b, 0x0b, 
	0x0b, 0x0b, 0x0b, 0x0b, 0x0b, 0x0b, 0x0b, 0x0b, 
	0x0b, 0x6c, 0x0e, 0x0e, 0x0e, 0x0e, 0x0e, 0x0e, 
	0x0e, 0xb2, 0x24, 0x24, 0x24, 0x24, 0x24, 0x24, 
	0x24, 0x24, 0x24, 0x24, 0x24, 0x24, 0x24, 0x24, 
	0x24, 0x24, 0x24, 0x24, 0x24, 0x24, 0x24, 0x24, 
	0x24, 0x24, 0x24, 0x24, 0x24, 0x24, 0x24, 0x24, 
	0x24, 0x24, 0x52, 0x4c, 0x12, 0x21, 0x1e, 0x1e, 
	0x41, 0x11, 0x0e, 0x0e, 0x7c, 0x7d, 0x0b, 0x0b, 
	0x0b, 0x0b, 0x0b, 0x0b, 0x0b, 0x0b, 0x0b, 0x0b, 
	0x0b, 0x80, 0x0e, 0x0e, 0x0e, 0x0e, 0x0e, 0x0e, 
	0x20, 0xb3, 0x24, 0x24, 0x24, 0x24, 0x24, 0x24, 
	0x24, 0x24, 0x24, 0x24, 0x24, 0x24, 0x24, 0x24, 
	0x24, 0x24, 0x24, 0x24, 0x24, 0x24, 0x24, 0x24, 
	0x24, 0x24, 0x24, 0x24, 0x24, 0x24, 0x24, 0x24, 
	0x24, 0x24, 0x02, 0x4d, 0x85, 0x90, 0x1e, 0x1e, 
	0x32, 0x83, 0x0e, 0x0e, 0x7c, 0x7d, 0x6b, 0x0b, 
	0x0b, 0x0b, 0x0b, 0x0b, 0x0b, 0x0b, 0x0b, 0x0b, 
	0x0b, 0x0d, 0x0e, 0x0e, 0x0e, 0x0e, 0x0e, 0x0e, 
	0x4b, 0x4f, 0x24, 0x24, 0x24, 0x24, 0x24, 0x24, 
	0x24, 0x24, 0x24, 0x24, 0x24, 0x24, 0x24, 0x24, 
	0x24, 0x24, 0x24, 0x24, 0x24, 0x24, 0x24, 0x24, 
	0x24, 0x24, 0x24, 0x24, 0x24, 0x24, 0x24, 0x24, 
	0x24, 0x24, 0x01, 0x44, 0x8e, 0x1d, 0x75, 0x1e, 
	0x32, 0xb4, 0x0e, 0x0e, 0x2c, 0x7d, 0x0b, 0x0b, 
	0x0b, 0x0b, 0x0b, 0x0b, 0x0b, 0x0b, 0x0b, 0x0b, 
	0xa9, 0xb5, 0x0e, 0x0e, 0x0e, 0x0e, 0x0e, 0x0e, 
	0x69, 0x25, 0x24, 0x24, 0x24, 0x24, 0x24, 0x24, 
	0x24, 0x24, 0x24, 0x24, 0x24, 0x24, 0x24, 0x24, 
	0x24, 0x24, 0x24, 0x24, 0x24, 0x24, 0x24, 0x24, 
	0x24, 0x24, 0x24, 0x24, 0x24, 0x24, 0x24, 0x24, 
	0x24, 0x24, 0x01, 0x89, 0x16, 0x1d, 0x1e, 0x1e, 
	
};

Gfx g_cut_rock2_weight_envmap_pal_rgba16_aligner[] = {gsSPEndDisplayList()};
u8 g_cut_rock2_weight_envmap_pal_rgba16[] = {
	0x08, 0x01, 0x00, 0x03, 0x00, 0x05, 0x00, 0x47, 
	0x00, 0x0d, 0x00, 0xdf, 0x01, 0x2d, 0x00, 0xaf, 
	0x42, 0x37, 0x6a, 0xfb, 0x6a, 0xb9, 0x6a, 0x7d, 
	0x5a, 0x7b, 0x19, 0x3d, 0x11, 0x3d, 0x21, 0x3b, 
	0x19, 0x39, 0x08, 0xf5, 0x08, 0xf3, 0x09, 0x2f, 
	0x08, 0xeb, 0x00, 0xe7, 0x00, 0xe5, 0x00, 0xe3, 
	0x00, 0x5b, 0x00, 0x17, 0x00, 0x15, 0x00, 0x19, 
	0x00, 0xa3, 0x09, 0x37, 0x11, 0x3f, 0x09, 0x3f, 
	0x09, 0x3d, 0x11, 0x3b, 0x11, 0x35, 0x08, 0xe5, 
	0x00, 0x01, 0x00, 0x09, 0x00, 0x99, 0x01, 0x29, 
	0x00, 0xeb, 0x41, 0xf7, 0x6a, 0x7b, 0x62, 0x7d, 
	0x10, 0xfb, 0x09, 0x31, 0x01, 0x2b, 0x01, 0x27, 
	0x00, 0xe1, 0x00, 0xdb, 0x00, 0xd9, 0x00, 0xd5, 
	0x00, 0x4d, 0x00, 0x97, 0x08, 0xe7, 0x09, 0x2d, 
	0x09, 0x35, 0x08, 0xe9, 0x09, 0x27, 0x4a, 0x37, 
	0x29, 0x7d, 0x11, 0x31, 0x09, 0x29, 0x09, 0x23, 
	0x09, 0x1d, 0x00, 0xd7, 0x08, 0xd3, 0x08, 0xcf, 
	0x00, 0x93, 0x09, 0x21, 0x09, 0x33, 0x10, 0xff, 
	0x00, 0x07, 0x4a, 0x35, 0x52, 0x3d, 0x09, 0x3b, 
	0x08, 0xe3, 0x00, 0x9b, 0x00, 0x53, 0x00, 0x4f, 
	0x00, 0x4b, 0x00, 0x8b, 0x00, 0x49, 0x00, 0x45, 
	0x00, 0x8f, 0x08, 0xdb, 0x11, 0x2d, 0x49, 0xf7, 
	0x21, 0x3d, 0x00, 0x0b, 0x00, 0x8d, 0x11, 0x2f, 
	0x09, 0x2b, 0x10, 0xed, 0x41, 0xbd, 0x08, 0xf7, 
	0x00, 0x0f, 0x10, 0xf3, 0x49, 0xfb, 0x62, 0x3d, 
	0x21, 0x75, 0x10, 0xcd, 0x00, 0x43, 0x01, 0x25, 
	0x00, 0xd3, 0x08, 0xf9, 0x49, 0xfd, 0x6a, 0x7f, 
	0x31, 0xbd, 0x21, 0x79, 0x18, 0xcb, 0x01, 0x21, 
	0x00, 0xdd, 0x5a, 0x3d, 0x21, 0x17, 0x08, 0xd5, 
	0x09, 0x1f, 0x08, 0xff, 0x39, 0xbd, 0x19, 0x73, 
	0x08, 0x91, 0x08, 0xdd, 0x08, 0x95, 0x00, 0xed, 
	0x10, 0xfd, 0x49, 0xff, 0x08, 0xa9, 0x00, 0x95, 
	0x21, 0x7d, 0x08, 0x4f, 0x09, 0x39, 0x11, 0x37, 
	0x52, 0x3f, 0x08, 0xed, 0x6a, 0x3d, 0x21, 0x7b, 
	0x09, 0x25, 0x00, 0x91, 0x08, 0xef, 0x18, 0xfb, 
	0x08, 0x93, 0x31, 0x7b, 0x00, 0xe9, 0x10, 0x85, 
	0x11, 0x39, 0x08, 0xd9, 0x5a, 0x3f, 0x51, 0xfb, 
	0x01, 0x19, 0x41, 0x79, 0x08, 0xfd, 0x10, 0x87, 
	0x51, 0xfd, 0x41, 0xb9, 0x00, 0x9f, 0x11, 0x33, 
	0x08, 0xdf, 0x19, 0x3b, 0x4a, 0x3b, 0x08, 0x45, 
	0x39, 0xbb, 0x08, 0x05, 0x29, 0x79, 0x08, 0xd1, 
	0x08, 0x8d, 0x00, 0x55, 0x10, 0xf5, 0x08, 0xfb, 
	0x41, 0xfd, 0x72, 0xbd, 0x08, 0x59, 0x00, 0x51, 
	0x08, 0xd7, 0x41, 0xff, 0x6a, 0xbd, 0x08, 0xa5, 
	0x52, 0x7d, 0x39, 0xfd, 0x08, 0xf1, 0x08, 0x9f, 
	0x10, 0xf9, 0x21, 0xbd, 
};

Gfx g_cut_rock2__8t_ia8_aligner[] = {gsSPEndDisplayList()};
u8 g_cut_rock2__8t_ia8[] = {
	0x00, 0x00, 0x00, 0x00, 0x00, 0x00, 0x00, 0x00, 
	0x00, 0x00, 0x00, 0x00, 0x00, 0x00, 0x00, 0x00, 
	0x00, 0x00, 0x00, 0x00, 0x00, 0x00, 0x00, 0x00, 
	0x00, 0x00, 0x00, 0x00, 0x00, 0x00, 0x00, 0x00, 
	0x00, 0x00, 0x00, 0x00, 0x00, 0x00, 0x00, 0x00, 
	0x00, 0x00, 0x00, 0x00, 0x00, 0x00, 0x00, 0x00, 
	0x00, 0x00, 0x00, 0x00, 0x00, 0x00, 0x00, 0x00, 
	0x00, 0x00, 0x00, 0x00, 0x00, 0x00, 0x00, 0x00, 
	0x00, 0x00, 0x00, 0x00, 0x00, 0x00, 0x00, 0x00, 
	0x00, 0x00, 0x00, 0x00, 0x00, 0x00, 0x00, 0x00, 
	0x00, 0x00, 0x00, 0x00, 0xf2, 0xf5, 0xf6, 0xf6, 
	0xf3, 0xf1, 0x00, 0x00, 0x00, 0x00, 0x00, 0x00, 
	0x00, 0x00, 0x00, 0x00, 0x00, 0x00, 0x00, 0x00, 
	0x00, 0x00, 0x00, 0x00, 0x00, 0x00, 0x00, 0x00, 
	0x00, 0x00, 0x00, 0x00, 0x00, 0x00, 0x00, 0x00, 
	0x00, 0x00, 0x00, 0x00, 0x00, 0x00, 0x00, 0x00, 
	0x00, 0x00, 0x00, 0x00, 0x00, 0x00, 0x00, 0x00, 
	0x00, 0x00, 0x00, 0x00, 0x00, 0x00, 0x00, 0x00, 
	0x00, 0x00, 0xf6, 0xfc, 0xff, 0xff, 0xff, 0xff, 
	0xff, 0xff, 0xfa, 0xf3, 0x00, 0x00, 0x00, 0x00, 
	0x00, 0x00, 0x00, 0x00, 0x00, 0x00, 0x00, 0x00, 
	0x00, 0x00, 0x00, 0x00, 0x00, 0x00, 0x00, 0x00, 
	0x00, 0x00, 0x00, 0x00, 0x00, 0x00, 0x00, 0x00, 
	0x00, 0x00, 0x00, 0x00, 0x00, 0x00, 0x00, 0x00, 
	0x00, 0x00, 0x00, 0x00, 0x00, 0x00, 0x00, 0x00, 
	0x00, 0x00, 0x00, 0x00, 0x00, 0x00, 0x00, 0x00, 
	0xf1, 0xfb, 0xff, 0xff, 0xff, 0xff, 0xfe, 0xff, 
	0xff, 0xff, 0xff, 0xff, 0xf8, 0x00, 0x00, 0x00, 
	0x00, 0x00, 0x00, 0x00, 0x00, 0x00, 0x00, 0x00, 
	0x00, 0x00, 0x00, 0x00, 0x00, 0x00, 0x00, 0x00, 
	0x00, 0x00, 0x00, 0x00, 0x00, 0x00, 0x00, 0x00, 
	0x00, 0x00, 0x00, 0x00, 0x00, 0x00, 0x00, 0x00, 
	0x00, 0x00, 0x00, 0x00, 0x00, 0x00, 0x00, 0x00, 
	0x00, 0x00, 0x00, 0x00, 0x00, 0x00, 0x00, 0x00, 
	0xfb, 0xff, 0xff, 0xfe, 0xf8, 0xf2, 0x00, 0xf0, 
	0xf4, 0xfb, 0xff, 0xff, 0xff, 0xf8, 0x00, 0x00, 
	0x00, 0x00, 0x00, 0x00, 0x00, 0x00, 0x00, 0x00, 
	0x00, 0x00, 0x00, 0x00, 0x00, 0x00, 0x00, 0x00, 
	0x00, 0x00, 0x00, 0x00, 0x00, 0x00, 0x00, 0x00, 
	0x00, 0x00, 0x00, 0x00, 0x00, 0x00, 0x00, 0x00, 
	0x00, 0x00, 0x00, 0x00, 0x00, 0x00, 0x00, 0x00, 
	0x00, 0x00, 0x00, 0x00, 0x00, 0x00, 0x00, 0xf6, 
	0xff, 0xff, 0xff, 0xf4, 0x00, 0x00, 0x00, 0x00, 
	0x00, 0x00, 0xfa, 0xff, 0xff, 0xff, 0xf1, 0x00, 
	0x00, 0x00, 0x00, 0x00, 0x00, 0x00, 0x00, 0x00, 
	0x00, 0x00, 0x00, 0x00, 0x00, 0x00, 0x00, 0x00, 
	0x00, 0x00, 0x00, 0x00, 0x00, 0x00, 0x00, 0x00, 
	0x00, 0x00, 0x00, 0x00, 0x00, 0x00, 0x00, 0x00, 
	0x00, 0x00, 0x00, 0x00, 0x00, 0x00, 0x00, 0x00, 
	0x00, 0x00, 0x00, 0x00, 0x00, 0x00, 0x00, 0xfa, 
	0xff, 0xff, 0xfa, 0x00, 0x00, 0x00, 0x00, 0x00, 
	0x00, 0x00, 0xf3, 0xff, 0xff, 0xff, 0xf6, 0x00, 
	0x00, 0x00, 0x00, 0x00, 0x00, 0x00, 0x00, 0x00, 
	0x00, 0x00, 0x00, 0x00, 0x00, 0x00, 0x00, 0x00, 
	0x00, 0x00, 0x00, 0x00, 0x00, 0x00, 0x00, 0x00, 
	0x00, 0x00, 0x00, 0x00, 0x00, 0x00, 0x00, 0x00, 
	0x00, 0x00, 0x00, 0x00, 0x00, 0x00, 0x00, 0x00, 
	0x00, 0x00, 0x00, 0x00, 0x00, 0x00, 0x00, 0xfc, 
	0xff, 0xff, 0xf7, 0x00, 0x00, 0x00, 0x00, 0x00, 
	0x00, 0x00, 0x00, 0xfe, 0xff, 0xff, 0xf7, 0x00, 
	0x00, 0x00, 0x00, 0x00, 0x00, 0x00, 0x00, 0x00, 
	0x00, 0x00, 0x00, 0x00, 0x00, 0x00, 0x00, 0x00, 
	0x00, 0x00, 0x00, 0x00, 0x00, 0x00, 0x00, 0x00, 
	0x00, 0x00, 0x00, 0x00, 0x00, 0x00, 0x00, 0x00, 
	0x00, 0x00, 0x00, 0x00, 0x00, 0x00, 0x00, 0x00, 
	0x00, 0x00, 0x00, 0x00, 0x00, 0x00, 0x00, 0xfc, 
	0xff, 0xff, 0xfa, 0x00, 0x00, 0x00, 0x00, 0x00, 
	0x00, 0x00, 0x00, 0xfe, 0xff, 0xff, 0xf6, 0x00, 
	0x00, 0x00, 0x00, 0x00, 0x00, 0x00, 0x00, 0x00, 
	0x00, 0x00, 0x00, 0x00, 0x00, 0x00, 0x00, 0x00, 
	0x00, 0x00, 0x00, 0x00, 0x00, 0x00, 0x00, 0x00, 
	0x00, 0x00, 0x00, 0x00, 0x00, 0x00, 0x00, 0x00, 
	0x00, 0x00, 0x00, 0x00, 0x00, 0x00, 0x00, 0x00, 
	0x00, 0x00, 0x00, 0x00, 0x00, 0x00, 0x00, 0xfa, 
	0xff, 0xff, 0xfe, 0xf1, 0x00, 0x00, 0x00, 0x00, 
	0x00, 0x00, 0xf1, 0xff, 0xff, 0xff, 0xf3, 0x00, 
	0x00, 0x00, 0x00, 0x00, 0x00, 0x00, 0x00, 0x00, 
	0x00, 0x00, 0x00, 0x00, 0x00, 0x00, 0x00, 0x00, 
	0x00, 0x00, 0x00, 0x00, 0x00, 0x00, 0x00, 0x00, 
	0x00, 0x00, 0x00, 0x00, 0x00, 0x00, 0x00, 0x00, 
	0x00, 0x00, 0x00, 0x00, 0x00, 0x00, 0x00, 0x00, 
	0x00, 0x00, 0x00, 0x00, 0x00, 0x00, 0x00, 0xf5, 
	0xff, 0xff, 0xff, 0xf9, 0x00, 0x00, 0x00, 0x00, 
	0x00, 0x00, 0xf7, 0xff, 0xff, 0xfa, 0x00, 0x00, 
	0x00, 0x00, 0x00, 0x00, 0x00, 0x00, 0x00, 0x00, 
	0x00, 0x00, 0x00, 0x00, 0x00, 0x00, 0x00, 0x00, 
	0x00, 0x00, 0x00, 0x00, 0x00, 0x00, 0x00, 0x00, 
	0x00, 0x00, 0x00, 0x00, 0x00, 0x00, 0x00, 0x00, 
	0x00, 0x00, 0x00, 0x00, 0x00, 0x00, 0x00, 0x00, 
	0x00, 0x00, 0x00, 0x00, 0x00, 0x00, 0x00, 0x00, 
	0xfc, 0xff, 0xff, 0xff, 0xfa, 0xf0, 0x00, 0x00, 
	0x00, 0xf5, 0xff, 0xff, 0xff, 0xf4, 0x00, 0x00, 
	0x00, 0x00, 0x00, 0x00, 0x00, 0x00, 0x00, 0x00, 
	0x00, 0x00, 0x00, 0x00, 0x00, 0x00, 0x00, 0x00, 
	0x00, 0x00, 0x00, 0x00, 0x00, 0x00, 0x00, 0x00, 
	0x00, 0x00, 0x00, 0x00, 0x00, 0x00, 0x00, 0x00, 
	0x00, 0x00, 0x00, 0x00, 0x00, 0x00, 0x00, 0x00, 
	0x00, 0x00, 0x00, 0x00, 0x00, 0x00, 0x00, 0x00, 
	0xf2, 0xfe, 0xff, 0xff, 0xff, 0xfd, 0xf6, 0xf0, 
	0xf8, 0xff, 0xff, 0xff, 0xf4, 0x00, 0x00, 0x00, 
	0x00, 0x00, 0x00, 0x00, 0x00, 0xf0, 0xff, 0xff, 
	0x00, 0x00, 0x00, 0x00, 0x00, 0x00, 0x00, 0x00, 
	0x00, 0x00, 0x00, 0x00, 0x00, 0x00, 0x00, 0x00, 
	0x00, 0x00, 0x00, 0x00, 0x00, 0x00, 0x00, 0x00, 
	0x00, 0x00, 0x00, 0x00, 0x00, 0x00, 0x00, 0x00, 
	0x00, 0x00, 0x00, 0x00, 0x00, 0x00, 0x00, 0x00, 
	0x00, 0xf3, 0xfd, 0xff, 0xff, 0xff, 0xff, 0xfe, 
	0xff, 0xff, 0xfa, 0xf2, 0x00, 0x00, 0x00, 0x00, 
	0x00, 0x00, 0x00, 0x00, 0x00, 0xf0, 0xff, 0xfe, 
	0x00, 0x00, 0x00, 0x00, 0x00, 0x00, 0x00, 0x00, 
	0x00, 0x00, 0x00, 0x00, 0x00, 0x00, 0x00, 0x00, 
	0x00, 0x00, 0x00, 0x00, 0x00, 0x00, 0x00, 0x00, 
	0x00, 0x00, 0x00, 0x00, 0x00, 0x00, 0x00, 0x00, 
	0x00, 0x00, 0x00, 0x00, 0x00, 0x00, 0x00, 0x00, 
	0x00, 0x00, 0xf1, 0xfd, 0xff, 0xff, 0xff, 0xff, 
	0xff, 0xff, 0xf7, 0x00, 0x00, 0x00, 0x00, 0x00, 
	0x00, 0x00, 0x00, 0x00, 0x00, 0xf2, 0xff, 0xfd, 
	0x00, 0x00, 0x00, 0x00, 0x00, 0x00, 0x00, 0x00, 
	0x00, 0x00, 0x00, 0x00, 0x00, 0x00, 0x00, 0x00, 
	0x00, 0x00, 0x00, 0x00, 0x00, 0x00, 0x00, 0x00, 
	0x00, 0x00, 0x00, 0x00, 0x00, 0x00, 0x00, 0x00, 
	0x00, 0x00, 0x00, 0x00, 0x00, 0x00, 0x00, 0x00, 
	0x00, 0xf2, 0xfa, 0xff, 0xff, 0xff, 0xff, 0xff, 
	0xff, 0xff, 0xff, 0xfb, 0xf2, 0x00, 0x00, 0x00, 
	0x00, 0x00, 0x00, 0xf0, 0xf3, 0xf4, 0xff, 0xfe, 
	0xf2, 0xf2, 0xf3, 0xf3, 0x00, 0x00, 0x00, 0x00, 
	0x00, 0x00, 0x00, 0x00, 0x00, 0x00, 0x00, 0x00, 
	0x00, 0x00, 0x00, 0x00, 0x00, 0x00, 0x00, 0x00, 
	0x00, 0x00, 0x00, 0x00, 0x00, 0x00, 0x00, 0x00, 
	0x00, 0x00, 0x00, 0x00, 0x00, 0x00, 0x00, 0x00, 
	0xf6, 0xff, 0xff, 0xff, 0xf9, 0xf2, 0xf2, 0xf9, 
	0xff, 0xff, 0xff, 0xff, 0xfe, 0xf3, 0x00, 0x00, 
	0x00, 0x00, 0x00, 0xf7, 0xff, 0xff, 0xff, 0xff, 
	0xff, 0xff, 0xff, 0xfa, 0x00, 0x00, 0x00, 0x00, 
	0x00, 0x00, 0x00, 0x00, 0x00, 0x00, 0x00, 0x00, 
	0x00, 0x00, 0x00, 0x00, 0x00, 0x00, 0x00, 0x00, 
	0x00, 0x00, 0x00, 0x00, 0x00, 0x00, 0x00, 0x00, 
	0x00, 0x00, 0x00, 0x00, 0x00, 0x00, 0x00, 0xf6, 
	0xff, 0xff, 0xff, 0xf5, 0x00, 0x00, 0x00, 0x00, 
	0xf3, 0xfc, 0xff, 0xff, 0xff, 0xfe, 0xf3, 0x00, 
	0x00, 0x00, 0x00, 0xf7, 0xfb, 0xfb, 0xff, 0xff, 
	0xfb, 0xfa, 0xfa, 0xf8, 0x00, 0x00, 0x00, 0x00, 
	0x00, 0x00, 0x00, 0x00, 0x00, 0x00, 0x00, 0x00, 
	0x00, 0x00, 0x00, 0x00, 0x00, 0x00, 0x00, 0x00, 
	0x00, 0x00, 0x00, 0x00, 0x00, 0x00, 0x00, 0x00, 
	0x00, 0x00, 0x00, 0x00, 0x00, 0x00, 0xf3, 0xff, 
	0xff, 0xff, 0xf7, 0x00, 0x00, 0x00, 0x00, 0x00, 
	0x00, 0xf1, 0xfa, 0xff, 0xff, 0xff, 0xfc, 0x00, 
	0x00, 0x00, 0x00, 0x00, 0x00, 0xf5, 0xff, 0xfc, 
	0x00, 0x00, 0x00, 0x00, 0x00, 0x00, 0x00, 0x00, 
	0x00, 0x00, 0x00, 0x00, 0x00, 0x00, 0x00, 0x00, 
	0x00, 0x00, 0x00, 0x00, 0x00, 0x00, 0x00, 0x00, 
	0x00, 0x00, 0x00, 0x00, 0x00, 0x00, 0x00, 0x00, 
	0x00, 0x00, 0x00, 0x00, 0x00, 0x00, 0xfa, 0xff, 
	0xff, 0xf9, 0x00, 0x00, 0x00, 0x00, 0x00, 0x00, 
	0x00, 0x00, 0x00, 0xfb, 0xff, 0xff, 0xff, 0xf6, 
	0x00, 0x00, 0x00, 0x00, 0x00, 0xf5, 0xff, 0xfb, 
	0x00, 0x00, 0x00, 0x00, 0x00, 0x00, 0x00, 0x00, 
	0x00, 0x00, 0x00, 0x00, 0x00, 0x00, 0x00, 0x00, 
	0x00, 0x00, 0x00, 0x00, 0x00, 0x00, 0x00, 0x00, 
	0x00, 0x00, 0x00, 0x00, 0x00, 0x00, 0x00, 0x00, 
	0x00, 0x00, 0x00, 0x00, 0x00, 0xf3, 0xff, 0xff, 
	0xff, 0xf3, 0x00, 0x00, 0x00, 0x00, 0x00, 0x00, 
	0x00, 0x00, 0x00, 0xf3, 0xff, 0xff, 0xff, 0xfb, 
	0x00, 0x00, 0x00, 0x00, 0x00, 0xf4, 0xff, 0xfa, 
	0x00, 0x00, 0x00, 0x00, 0x00, 0x00, 0x00, 0x00, 
	0x00, 0x00, 0x00, 0x00, 0x00, 0x00, 0x00, 0x00, 
	0x00, 0x00, 0x00, 0x00, 0x00, 0x00, 0x00, 0x00, 
	0x00, 0x00, 0x00, 0x00, 0x00, 0x00, 0x00, 0x00, 
	0x00, 0x00, 0x00, 0x00, 0x00, 0xf5, 0xff, 0xff, 
	0xff, 0xf0, 0x00, 0x00, 0x00, 0x00, 0x00, 0x00, 
	0x00, 0x00, 0x00, 0x00, 0xfb, 0xff, 0xff, 0xfd, 
	0x00, 0x00, 0x00, 0x00, 0x00, 0xf4, 0xff, 0xfa, 
	0x00, 0x00, 0x00, 0x00, 0x00, 0x00, 0x00, 0x00, 
	0x00, 0x00, 0x00, 0x00, 0x00, 0x00, 0x00, 0x00, 
	0x00, 0x00, 0x00, 0x00, 0x00, 0x00, 0x00, 0x00, 
	0x00, 0x00, 0x00, 0x00, 0x00, 0x00, 0x00, 0x00, 
	0x00, 0x00, 0x00, 0x00, 0x00, 0xf7, 0xff, 0xff, 
	0xfe, 0x00, 0x00, 0x00, 0x00, 0x00, 0x00, 0x00, 
	0x00, 0x00, 0x00, 0x00, 0xf9, 0xff, 0xff, 0xfe, 
	0x00, 0x00, 0x00, 0x00, 0x00, 0xf4, 0xff, 0xfb, 
	0x00, 0x00, 0x00, 0x00, 0x00, 0x00, 0x00, 0x00, 
	0x00, 0x00, 0x00, 0x00, 0x00, 0x00, 0x00, 0x00, 
	0x00, 0x00, 0x00, 0x00, 0x00, 0x00, 0x00, 0x00, 
	0x00, 0x00, 0x00, 0x00, 0x00, 0x00, 0x00, 0x00, 
	0x00, 0x00, 0x00, 0x00, 0x00, 0xf6, 0xff, 0xff, 
	0xff, 0xf2, 0x00, 0x00, 0x00, 0x00, 0x00, 0x00, 
	0x00, 0x00, 0x00, 0x00, 0xf9, 0xff, 0xff, 0xfd, 
	0x00, 0x00, 0x00, 0x00, 0x00, 0xf4, 0xff, 0xfc, 
	0x00, 0x00, 0x00, 0x00, 0x00, 0x00, 0x00, 0x00, 
	0x00, 0x00, 0x00, 0x00, 0x00, 0x00, 0x00, 0x00, 
	0x00, 0x00, 0x00, 0x00, 0x00, 0x00, 0x00, 0x00, 
	0x00, 0x00, 0x00, 0x00, 0x00, 0x00, 0x00, 0x00, 
	0x00, 0x00, 0x00, 0x00, 0x00, 0xf5, 0xff, 0xff, 
	0xff, 0xf6, 0x00, 0x00, 0x00, 0x00, 0x00, 0x00, 
	0x00, 0x00, 0x00, 0x00, 0xfd, 0xff, 0xff, 0xfa, 
	0x00, 0x00, 0x00, 0x00, 0x00, 0xf3, 0xff, 0xfe, 
	0x00, 0x00, 0x00, 0x00, 0x00, 0x00, 0x00, 0x00, 
	0x00, 0x00, 0x00, 0x00, 0x00, 0x00, 0x00, 0x00, 
	0x00, 0x00, 0x00, 0x00, 0x00, 0x00, 0x00, 0x00, 
	0x00, 0x00, 0x00, 0x00, 0x00, 0x00, 0x00, 0x00, 
	0x00, 0x00, 0x00, 0x00, 0x00, 0x00, 0xfe, 0xff, 
	0xff, 0xfd, 0xf2, 0x00, 0x00, 0x00, 0x00, 0x00, 
	0x00, 0x00, 0x00, 0xf7, 0xff, 0xff, 0xff, 0xf5, 
	0x00, 0x00, 0x00, 0x00, 0x00, 0xf1, 0xff, 0xff, 
	0xf8, 0x00, 0x00, 0x00, 0x00, 0x00, 0x00, 0x00, 
	0x00, 0x00, 0x00, 0x00, 0x00, 0x00, 0x00, 0x00, 
	0x00, 0x00, 0x00, 0x00, 0x00, 0x00, 0x00, 0x00, 
	0x00, 0x00, 0x00, 0x00, 0x00, 0x00, 0x00, 0x00, 
	0x00, 0x00, 0x00, 0x00, 0x00, 0x00, 0xf7, 0xff, 
	0xff, 0xff, 0xfd, 0xf5, 0x00, 0x00, 0x00, 0x00, 
	0x00, 0xf0, 0xf7, 0xff, 0xff, 0xff, 0xfc, 0x00, 
	0x00, 0x00, 0x00, 0x00, 0x00, 0x00, 0xfa, 0xff, 
	0xff, 0xfa, 0xf9, 0xfe, 0x00, 0x00, 0x00, 0x00, 
	0x00, 0x00, 0x00, 0x00, 0x00, 0x00, 0x00, 0x00, 
	0x00, 0x00, 0x00, 0x00, 0x00, 0x00, 0x00, 0x00, 
	0x00, 0x00, 0x00, 0x00, 0x00, 0x00, 0x00, 0x00, 
	0x00, 0x00, 0x00, 0x00, 0x00, 0x00, 0x00, 0xfa, 
	0xff, 0xff, 0xff, 0xff, 0xfb, 0xf9, 0xf6, 0xf7, 
	0xf9, 0xfd, 0xff, 0xff, 0xff, 0xfd, 0xf3, 0x00, 
	0x00, 0x00, 0x00, 0x00, 0x00, 0x00, 0xf2, 0xfb, 
	0xff, 0xff, 0xff, 0xfc, 0x00, 0x00, 0x00, 0x00, 
	0x00, 0x00, 0x00, 0x00, 0x00, 0x00, 0x00, 0x00, 
	0x00, 0x00, 0x00, 0x00, 0x00, 0x00, 0x00, 0x00, 
	0x00, 0x00, 0x00, 0x00, 0x00, 0x00, 0x00, 0x00, 
	0x00, 0x00, 0x00, 0x00, 0x00, 0x00, 0x00, 0x00, 
	0xf8, 0xff, 0xff, 0xff, 0xff, 0xff, 0xff, 0xff, 
	0xff, 0xff, 0xff, 0xff, 0xfa, 0xf2, 0x00, 0x00, 
	0x00, 0x00, 0x00, 0x00, 0x00, 0x00, 0x00, 0x00, 
	0xf1, 0xf3, 0xf2, 0x00, 0x00, 0x00, 0x00, 0x00, 
	0x00, 0x00, 0x00, 0x00, 0x00, 0x00, 0x00, 0x00, 
	0x00, 0x00, 0x00, 0x00, 0x00, 0x00, 0x00, 0x00, 
	0x00, 0x00, 0x00, 0x00, 0x00, 0x00, 0x00, 0x00, 
	0x00, 0x00, 0x00, 0x00, 0x00, 0x00, 0x00, 0x00, 
	0x00, 0xf4, 0xf9, 0xff, 0xff, 0xff, 0xff, 0xff, 
	0xff, 0xff, 0xfb, 0xf5, 0x00, 0x00, 0x00, 0x00, 
	0x00, 0x00, 0x00, 0x00, 0x00, 0x00, 0x00, 0x00, 
	0x00, 0x00, 0x00, 0x00, 0x00, 0x00, 0x00, 0x00, 
	0x00, 0x00, 0x00, 0x00, 0x00, 0x00, 0x00, 0x00, 
	0x00, 0x00, 0x00, 0x00, 0x00, 0x00, 0x00, 0x00, 
	0x00, 0x00, 0x00, 0x00, 0x00, 0x00, 0x00, 0x00, 
	0x00, 0x00, 0x00, 0x00, 0x00, 0x00, 0x00, 0x00, 
	0x00, 0x00, 0x00, 0xf0, 0xf4, 0xf6, 0xf6, 0xf5, 
	0xf4, 0xf1, 0x00, 0x00, 0x00, 0x00, 0x00, 0x00, 
	0x00, 0x00, 0x00, 0x00, 0x00, 0x00, 0x00, 0x00, 
	0x00, 0x00, 0x00, 0x00, 0x00, 0x00, 0x00, 0x00, 
	0x00, 0x00, 0x00, 0x00, 0x00, 0x00, 0x00, 0x00, 
	0x00, 0x00, 0x00, 0x00, 0x00, 0x00, 0x00, 0x00, 
	0x00, 0x00, 0x00, 0x00, 0x00, 0x00, 0x00, 0x00, 
	0x00, 0x00, 0x00, 0x00, 0x00, 0x00, 0x00, 0x00, 
	0x00, 0x00, 0x00, 0x00, 0x00, 0x00, 0x00, 0x00, 
	0x00, 0x00, 0x00, 0x00, 0x00, 0x00, 0x00, 0x00, 
	0x00, 0x00, 0x00, 0x00, 0x00, 0x00, 0x00, 0x00, 
	0x00, 0x00, 0x00, 0x00, 0x00, 0x00, 0x00, 0x00, 
	0x00, 0x00, 0x00, 0x00, 0x00, 0x00, 0x00, 0x00, 
	0x00, 0x00, 0x00, 0x00, 0x00, 0x00, 0x00, 0x00, 
	
};

Vtx g_cut_rock2_Cube_003_mesh_layer_1_vtx_0[92] = {
	{{ {-139, -8, 0}, 0, {-260, 495}, {152, 184, 0, 255} }},
	{{ {-98, -8, -98}, 0, {-260, 495}, {182, 183, 182, 255} }},
	{{ {0, -8, -139}, 0, {-260, 495}, {0, 184, 152, 255} }},
	{{ {-114, 147, 0}, 0, {-260, 495}, {153, 74, 0, 255} }},
	{{ {-81, 147, 81}, 0, {-260, 495}, {183, 74, 73, 255} }},
	{{ {-98, -8, 98}, 0, {-260, 495}, {182, 183, 74, 255} }},
	{{ {0, -8, 139}, 0, {-260, 495}, {0, 184, 104, 255} }},
	{{ {139, -8, 0}, 0, {-260, 495}, {104, 184, 0, 255} }},
	{{ {98, -8, -98}, 0, {-260, 495}, {74, 183, 182, 255} }},
	{{ {0, 147, -114}, 0, {-260, 495}, {0, 74, 153, 255} }},
	{{ {-81, 147, -81}, 0, {-260, 495}, {183, 74, 183, 255} }},
	{{ {-91, 156, 0}, 0, {-260, 495}, {230, 124, 0, 255} }},
	{{ {-64, 156, 64}, 0, {-260, 495}, {237, 124, 19, 255} }},
	{{ {0, 156, 91}, 0, {-260, 495}, {0, 124, 26, 255} }},
	{{ {0, 147, 114}, 0, {-260, 495}, {0, 74, 103, 255} }},
	{{ {81, 147, 81}, 0, {-260, 495}, {73, 74, 73, 255} }},
	{{ {0, -8, 139}, 0, {-260, 495}, {0, 184, 104, 255} }},
	{{ {98, -8, 98}, 0, {-260, 495}, {74, 183, 74, 255} }},
	{{ {81, 147, 81}, 0, {-260, 495}, {73, 74, 73, 255} }},
	{{ {139, -8, 0}, 0, {-260, 495}, {104, 184, 0, 255} }},
	{{ {114, 147, 0}, 0, {-260, 495}, {103, 74, 0, 255} }},
	{{ {81, 147, -81}, 0, {-260, 495}, {73, 74, 183, 255} }},
	{{ {98, -8, -98}, 0, {-260, 495}, {74, 183, 182, 255} }},
	{{ {0, 147, -114}, 0, {-260, 495}, {0, 74, 153, 255} }},
	{{ {0, 156, -91}, 0, {-260, 495}, {0, 124, 230, 255} }},
	{{ {-64, 156, -64}, 0, {-260, 495}, {237, 124, 237, 255} }},
	{{ {-81, 147, -81}, 0, {-260, 495}, {183, 74, 183, 255} }},
	{{ {-91, 156, 0}, 0, {-260, 495}, {230, 124, 0, 255} }},
	{{ {0, 156, 91}, 0, {-260, 495}, {0, 124, 26, 255} }},
	{{ {-64, 156, 64}, 0, {-260, 495}, {237, 124, 19, 255} }},
	{{ {91, 156, 0}, 0, {-260, 495}, {26, 124, 0, 255} }},
	{{ {64, 156, 64}, 0, {-260, 495}, {19, 124, 19, 255} }},
	{{ {64, 156, 64}, 0, {-260, 495}, {19, 124, 19, 255} }},
	{{ {0, 156, 91}, 0, {-260, 495}, {0, 124, 26, 255} }},
	{{ {0, 147, 114}, 0, {-260, 495}, {0, 74, 103, 255} }},
	{{ {81, 147, 81}, 0, {-260, 495}, {73, 74, 73, 255} }},
	{{ {91, 156, 0}, 0, {-260, 495}, {26, 124, 0, 255} }},
	{{ {114, 147, 0}, 0, {-260, 495}, {103, 74, 0, 255} }},
	{{ {98, -8, 98}, 0, {-260, 495}, {74, 183, 74, 255} }},
	{{ {64, 156, -64}, 0, {-260, 495}, {19, 124, 237, 255} }},
	{{ {0, 156, -91}, 0, {-260, 495}, {0, 124, 230, 255} }},
	{{ {81, 147, -81}, 0, {-260, 495}, {73, 74, 183, 255} }},
	{{ {0, 138, 59}, 0, {764, 495}, {0, 169, 93, 255} }},
	{{ {0, 138, 36}, 0, {764, -529}, {0, 150, 185, 255} }},
	{{ {11, 143, 36}, 0, {1788, -529}, {86, 190, 190, 255} }},
	{{ {-11, 143, 59}, 0, {-260, 495}, {172, 216, 86, 255} }},
	{{ {0, 201, 39}, 0, {764, 495}, {0, 83, 96, 255} }},
	{{ {11, 198, 39}, 0, {1788, 495}, {89, 52, 75, 255} }},
	{{ {0, 138, 59}, 0, {764, 495}, {0, 169, 93, 255} }},
	{{ {11, 143, 59}, 0, {1788, 495}, {84, 216, 86, 255} }},
	{{ {11, 198, 39}, 0, {1788, 495}, {89, 52, 75, 255} }},
	{{ {11, 143, 36}, 0, {1788, -529}, {86, 190, 190, 255} }},
	{{ {11, 179, 27}, 0, {1788, -529}, {100, 213, 190, 255} }},
	{{ {0, 179, 27}, 0, {764, -529}, {0, 185, 150, 255} }},
	{{ {0, 138, 36}, 0, {764, -529}, {0, 150, 185, 255} }},
	{{ {-11, 179, 27}, 0, {-260, -529}, {156, 213, 190, 255} }},
	{{ {-11, 143, 36}, 0, {-260, -529}, {170, 190, 190, 255} }},
	{{ {-11, 143, 59}, 0, {-260, 495}, {172, 216, 86, 255} }},
	{{ {-11, 198, 39}, 0, {-260, 495}, {167, 52, 75, 255} }},
	{{ {0, 201, 39}, 0, {764, 495}, {0, 83, 96, 255} }},
	{{ {0, 228, -2}, 0, {764, 495}, {0, 127, 0, 255} }},
	{{ {11, 222, -2}, 0, {1788, 495}, {96, 83, 0, 255} }},
	{{ {11, 199, -3}, 0, {1788, -529}, {103, 182, 0, 255} }},
	{{ {0, 203, -3}, 0, {764, -529}, {0, 129, 1, 255} }},
	{{ {0, 179, 27}, 0, {764, -529}, {0, 185, 150, 255} }},
	{{ {-11, 199, -3}, 0, {-260, -529}, {153, 182, 0, 255} }},
	{{ {0, 203, -3}, 0, {764, -529}, {0, 129, 1, 255} }},
	{{ {-11, 179, 27}, 0, {-260, -529}, {156, 213, 190, 255} }},
	{{ {-11, 222, -2}, 0, {-260, 495}, {160, 83, 0, 255} }},
	{{ {-11, 198, 39}, 0, {-260, 495}, {167, 52, 75, 255} }},
	{{ {-11, 143, 36}, 0, {-260, -529}, {170, 190, 190, 255} }},
	{{ {0, 228, -2}, 0, {764, 495}, {0, 127, 0, 255} }},
	{{ {0, 202, -43}, 0, {764, 495}, {0, 83, 160, 255} }},
	{{ {11, 198, -43}, 0, {1788, 495}, {89, 52, 181, 255} }},
	{{ {11, 222, -2}, 0, {1788, 495}, {96, 83, 0, 255} }},
	{{ {11, 178, -32}, 0, {1788, -529}, {100, 215, 67, 255} }},
	{{ {11, 199, -3}, 0, {1788, -529}, {103, 182, 0, 255} }},
	{{ {0, 179, -32}, 0, {764, -529}, {0, 188, 107, 255} }},
	{{ {-11, 178, -32}, 0, {-260, -529}, {156, 215, 67, 255} }},
	{{ {-11, 198, -43}, 0, {-260, 495}, {167, 52, 181, 255} }},
	{{ {-11, 198, -43}, 0, {-260, 495}, {167, 52, 181, 255} }},
	{{ {0, 202, -43}, 0, {764, 495}, {0, 83, 160, 255} }},
	{{ {0, 138, -62}, 0, {764, 495}, {0, 167, 165, 255} }},
	{{ {11, 142, -62}, 0, {1788, 495}, {84, 214, 170, 255} }},
	{{ {11, 198, -43}, 0, {1788, 495}, {89, 52, 181, 255} }},
	{{ {11, 143, -40}, 0, {1788, -529}, {86, 192, 68, 255} }},
	{{ {11, 178, -32}, 0, {1788, -529}, {100, 215, 67, 255} }},
	{{ {0, 139, -40}, 0, {764, -529}, {0, 153, 74, 255} }},
	{{ {0, 179, -32}, 0, {764, -529}, {0, 188, 107, 255} }},
	{{ {-11, 143, -40}, 0, {-260, -529}, {170, 192, 68, 255} }},
	{{ {-11, 178, -32}, 0, {-260, -529}, {156, 215, 67, 255} }},
	{{ {-11, 142, -62}, 0, {-260, 495}, {172, 214, 170, 255} }},
};

Gfx g_cut_rock2_Cube_003_mesh_layer_1_tri_0[] = {
	gsSPVertex(g_cut_rock2_Cube_003_mesh_layer_1_vtx_0 + 0, 16, 0),
	gsSP1Triangle(0, 1, 2, 0),
	gsSP1Triangle(1, 0, 3, 0),
	gsSP1Triangle(0, 4, 3, 0),
	gsSP1Triangle(0, 5, 4, 0),
	gsSP1Triangle(6, 5, 0, 0),
	gsSP1Triangle(7, 6, 0, 0),
	gsSP1Triangle(0, 2, 7, 0),
	gsSP1Triangle(2, 8, 7, 0),
	gsSP1Triangle(8, 2, 9, 0),
	gsSP1Triangle(2, 10, 9, 0),
	gsSP1Triangle(2, 1, 10, 0),
	gsSP1Triangle(1, 3, 10, 0),
	gsSP1Triangle(11, 10, 3, 0),
	gsSP1Triangle(12, 11, 3, 0),
	gsSP1Triangle(12, 3, 4, 0),
	gsSP1Triangle(13, 12, 4, 0),
	gsSP1Triangle(13, 4, 14, 0),
	gsSP1Triangle(5, 14, 4, 0),
	gsSP1Triangle(5, 6, 14, 0),
	gsSP1Triangle(6, 15, 14, 0),
	gsSPVertex(g_cut_rock2_Cube_003_mesh_layer_1_vtx_0 + 16, 16, 0),
	gsSP1Triangle(0, 1, 2, 0),
	gsSP1Triangle(3, 1, 0, 0),
	gsSP1Triangle(1, 3, 4, 0),
	gsSP1Triangle(3, 5, 4, 0),
	gsSP1Triangle(3, 6, 5, 0),
	gsSP1Triangle(6, 7, 5, 0),
	gsSP1Triangle(8, 5, 7, 0),
	gsSP1Triangle(9, 8, 7, 0),
	gsSP1Triangle(9, 7, 10, 0),
	gsSP1Triangle(11, 9, 10, 0),
	gsSP1Triangle(8, 9, 11, 0),
	gsSP1Triangle(8, 11, 12, 0),
	gsSP1Triangle(11, 13, 12, 0),
	gsSP1Triangle(12, 14, 8, 0),
	gsSP1Triangle(12, 15, 14, 0),
	gsSPVertex(g_cut_rock2_Cube_003_mesh_layer_1_vtx_0 + 32, 16, 0),
	gsSP1Triangle(0, 1, 2, 0),
	gsSP1Triangle(0, 2, 3, 0),
	gsSP1Triangle(4, 0, 3, 0),
	gsSP1Triangle(4, 3, 5, 0),
	gsSP1Triangle(6, 5, 3, 0),
	gsSP1Triangle(7, 4, 5, 0),
	gsSP1Triangle(4, 7, 8, 0),
	gsSP1Triangle(8, 7, 9, 0),
	gsSP1Triangle(7, 5, 9, 0),
	gsSP1Triangle(10, 11, 12, 0),
	gsSP1Triangle(13, 11, 10, 0),
	gsSP1Triangle(13, 10, 14, 0),
	gsSP1Triangle(10, 15, 14, 0),
	gsSPVertex(g_cut_rock2_Cube_003_mesh_layer_1_vtx_0 + 48, 16, 0),
	gsSP1Triangle(0, 1, 2, 0),
	gsSP1Triangle(0, 3, 1, 0),
	gsSP1Triangle(1, 3, 4, 0),
	gsSP1Triangle(3, 5, 4, 0),
	gsSP1Triangle(3, 6, 5, 0),
	gsSP1Triangle(6, 7, 5, 0),
	gsSP1Triangle(6, 8, 7, 0),
	gsSP1Triangle(9, 8, 6, 0),
	gsSP1Triangle(8, 9, 10, 0),
	gsSP1Triangle(9, 11, 10, 0),
	gsSP1Triangle(10, 11, 12, 0),
	gsSP1Triangle(11, 13, 12, 0),
	gsSP1Triangle(11, 2, 13, 0),
	gsSP1Triangle(2, 14, 13, 0),
	gsSP1Triangle(2, 4, 14, 0),
	gsSP1Triangle(1, 4, 2, 0),
	gsSP1Triangle(4, 15, 14, 0),
	gsSP1Triangle(4, 5, 15, 0),
	gsSPVertex(g_cut_rock2_Cube_003_mesh_layer_1_vtx_0 + 64, 16, 0),
	gsSP1Triangle(0, 1, 2, 0),
	gsSP1Triangle(0, 3, 1, 0),
	gsSP1Triangle(3, 4, 1, 0),
	gsSP1Triangle(3, 5, 4, 0),
	gsSP1Triangle(6, 5, 3, 0),
	gsSP1Triangle(5, 7, 4, 0),
	gsSP1Triangle(4, 7, 8, 0),
	gsSP1Triangle(7, 9, 8, 0),
	gsSP1Triangle(7, 10, 9, 0),
	gsSP1Triangle(10, 11, 9, 0),
	gsSP1Triangle(10, 12, 11, 0),
	gsSP1Triangle(12, 13, 11, 0),
	gsSP1Triangle(12, 2, 13, 0),
	gsSP1Triangle(2, 14, 13, 0),
	gsSP1Triangle(2, 1, 14, 0),
	gsSP1Triangle(1, 15, 14, 0),
	gsSP1Triangle(1, 4, 15, 0),
	gsSP1Triangle(4, 8, 15, 0),
	gsSPVertex(g_cut_rock2_Cube_003_mesh_layer_1_vtx_0 + 80, 12, 0),
	gsSP1Triangle(0, 1, 2, 0),
	gsSP1Triangle(1, 3, 2, 0),
	gsSP1Triangle(1, 4, 3, 0),
	gsSP1Triangle(4, 5, 3, 0),
	gsSP1Triangle(4, 6, 5, 0),
	gsSP1Triangle(6, 7, 5, 0),
	gsSP1Triangle(6, 8, 7, 0),
	gsSP1Triangle(8, 9, 7, 0),
	gsSP1Triangle(8, 10, 9, 0),
	gsSP1Triangle(10, 11, 9, 0),
	gsSP1Triangle(10, 0, 11, 0),
	gsSP1Triangle(0, 2, 11, 0),
	gsSP1Triangle(11, 2, 7, 0),
	gsSP1Triangle(2, 5, 7, 0),
	gsSP1Triangle(2, 3, 5, 0),
	gsSP1Triangle(11, 7, 9, 0),
	gsSPEndDisplayList(),
};

Vtx g_cut_rock2_Cube_003_mesh_layer_6_vtx_0[6] = {
	{{ {-139, -8, 0}, 0, {898, 1134}, {131, 20, 0, 255} }},
	{{ {-98, -8, 98}, 0, {1807, 1084}, {140, 18, 48, 255} }},
	{{ {-81, 147, 81}, 0, {1646, -142}, {140, 18, 48, 255} }},
	{{ {-114, 147, 0}, 0, {898, -101}, {131, 20, 0, 255} }},
	{{ {-98, -8, -98}, 0, {-10, 1084}, {140, 18, 208, 255} }},
	{{ {-81, 147, -81}, 0, {151, -142}, {140, 18, 208, 255} }},
};

Gfx g_cut_rock2_Cube_003_mesh_layer_6_tri_0[] = {
	gsSPVertex(g_cut_rock2_Cube_003_mesh_layer_6_vtx_0 + 0, 6, 0),
	gsSP1Triangle(0, 1, 2, 0),
	gsSP1Triangle(0, 2, 3, 0),
	gsSP1Triangle(4, 0, 3, 0),
	gsSP1Triangle(4, 3, 5, 0),
	gsSPEndDisplayList(),
};


Gfx mat_g_cut_rock2_f3dlite_material_025[] = {
	gsDPPipeSync(),
	gsDPSetCombineLERP(0, 0, 0, TEXEL0, 0, 0, 0, ENVIRONMENT, 0, 0, 0, TEXEL0, 0, 0, 0, ENVIRONMENT),
	gsSPSetGeometryMode(G_TEXTURE_GEN),
	gsDPSetTextureLUT(G_TT_RGBA16),
	gsSPTexture(4032, 1984, 0, 0, 1),
	gsDPSetTextureImage(G_IM_FMT_RGBA, G_IM_SIZ_16b, 1, g_cut_rock2_weight_envmap_pal_rgba16),
	gsDPSetTile(0, 0, 0, 256, 5, 0, G_TX_WRAP | G_TX_NOMIRROR, 0, 0, G_TX_WRAP | G_TX_NOMIRROR, 0, 0),
	gsDPLoadTLUTCmd(5, 181),
	gsDPSetTextureImage(G_IM_FMT_CI, G_IM_SIZ_8b_LOAD_BLOCK, 1, g_cut_rock2_weight_envmap_ci8),
	gsDPSetTile(G_IM_FMT_CI, G_IM_SIZ_8b_LOAD_BLOCK, 0, 0, 7, 0, G_TX_WRAP | G_TX_NOMIRROR, 0, 0, G_TX_WRAP | G_TX_NOMIRROR, 0, 0),
	gsDPLoadBlock(7, 0, 0, 1023, 256),
	gsDPSetTile(G_IM_FMT_CI, G_IM_SIZ_8b, 8, 0, 0, 0, G_TX_WRAP | G_TX_NOMIRROR, 5, 0, G_TX_WRAP | G_TX_NOMIRROR, 6, 0),
	gsDPSetTileSize(0, 0, 0, 252, 124),
	gsSPEndDisplayList(),
};

Gfx mat_revert_g_cut_rock2_f3dlite_material_025[] = {
	gsDPPipeSync(),
	gsSPClearGeometryMode(G_TEXTURE_GEN),
	gsDPSetTextureLUT(G_TT_NONE),
	gsSPEndDisplayList(),
};

Gfx mat_g_cut_rock2_f3dlite_material_026[] = {
	gsDPPipeSync(),
	gsDPSetCombineLERP(TEXEL0, 0, SHADE, 0, TEXEL0, 0, SHADE, 0, TEXEL0, 0, SHADE, 0, TEXEL0, 0, SHADE, 0),
	gsSPTexture(65535, 65535, 0, 0, 1),
    gsSPLightColor(LIGHT_1, 0xffffffff),
    gsSPLightColor(LIGHT_2, 0x7f7f7fff),
	gsDPSetTextureImage(G_IM_FMT_IA, G_IM_SIZ_8b_LOAD_BLOCK, 1, g_cut_rock2__8t_ia8),
	gsDPSetTile(G_IM_FMT_IA, G_IM_SIZ_8b_LOAD_BLOCK, 0, 0, 7, 0, G_TX_WRAP | G_TX_NOMIRROR, 0, 0, G_TX_WRAP | G_TX_NOMIRROR, 0, 0),
	gsDPLoadBlock(7, 0, 0, 1023, 256),
	gsDPSetTile(G_IM_FMT_IA, G_IM_SIZ_8b, 8, 0, 0, 0, G_TX_CLAMP | G_TX_NOMIRROR, 5, 0, G_TX_CLAMP | G_TX_NOMIRROR, 6, 0),
	gsDPSetTileSize(0, 0, 0, 252, 124),
	gsSPEndDisplayList(),
};

Gfx g_cut_rock2_Cube_003_mesh_layer_1[] = {
	gsSPDisplayList(mat_g_cut_rock2_f3dlite_material_025),
	gsSPDisplayList(g_cut_rock2_Cube_003_mesh_layer_1_tri_0),
	gsSPDisplayList(mat_revert_g_cut_rock2_f3dlite_material_025),
	gsSPEndDisplayList(),
};

Gfx g_cut_rock2_Cube_003_mesh_layer_6[] = {
	gsSPDisplayList(mat_g_cut_rock2_f3dlite_material_026),
	gsSPDisplayList(g_cut_rock2_Cube_003_mesh_layer_6_tri_0),
	gsSPEndDisplayList(),
};

Gfx g_cut_rock2_material_revert_render_settings[] = {
	gsDPPipeSync(),
	gsSPSetGeometryMode(G_LIGHTING),
	gsSPClearGeometryMode(G_TEXTURE_GEN),
	gsDPSetCombineLERP(0, 0, 0, SHADE, 0, 0, 0, ENVIRONMENT, 0, 0, 0, SHADE, 0, 0, 0, ENVIRONMENT),
	gsSPTexture(65535, 65535, 0, 0, 0),
	gsDPSetEnvColor(255, 255, 255, 255),
	gsDPSetAlphaCompare(G_AC_NONE),
	gsSPEndDisplayList(),
};

